{
  "version": "1.0",
  "truncation": null,
  "padding": null,
  "added_tokens": [
    {
      "id": 0,
      "content": "<|endoftext|>",
      "single_word": false,
      "lstrip": false,
      "rstrip": false,
      "normalized": false,
      "special": true
    },
    {
      "id": 1,
      "content": "<|pad|>",
      "single_word": false,
      "lstrip": false,
      "rstrip": false,
      "normalized": false,
      "special": true
    },
    {
      "id": 2,
      "content": "<|bos|>",
      "single_word": false,
      "lstrip": false,
      "rstrip": false,
      "normalized": false,
      "special": true
    },
    {
      "id": 3,
      "content": "<|unk|>",
      "single_word": false,
      "lstrip": false,
      "rstrip": false,
      "normalized": false,
      "special": true
    }
  ],
  "normalizer": null,
  "pre_tokenizer": {
    "type": "ByteLevel",
    "add_prefix_space": false,
    "trim_offsets": true,
    "use_regex": true
  },
  "post_processor": null,
  "decoder": {
    "type": "ByteLevel",
    "add_prefix_space": true,
    "trim_offsets": true,
    "use_regex": true
  },
  "model": {
    "type": "BPE",
    "dropout": null,
    "unk_token": "<|unk|>",
    "continuing_subword_prefix": null,
    "end_of_word_suffix": null,
    "fuse_unk": false,
    "byte_fallback": false,
    "ignore_merges": false,
    "vocab": {
      "<|endoftext|>": 0,
      "<|pad|>": 1,
      "<|bos|>": 2,
      "<|unk|>": 3,
      "!": 4,
      "\"": 5,
      "#": 6,
      "$": 7,
      "%": 8,
      "&": 9,
      "'": 10,
      "(": 11,
      ")": 12,
      "*": 13,
      "+": 14,
      ",": 15,
      "-": 16,
      ".": 17,
      "/": 18,
      "0": 19,
      "1": 20,
      "2": 21,
      "3": 22,
      "4": 23,
      "5": 24,
      "6": 25,
      "7": 26,
      "8": 27,
      "9": 28,
      ":": 29,
      ";": 30,
      "<": 31,
      "=": 32,
      ">": 33,
      "?": 34,
      "@": 35,
      "A": 36,
      "B": 37,
      "C": 38,
      "D": 39,
      "E": 40,
      "F": 41,
      "G": 42,
      "H": 43,
      "I": 44,
      "J": 45,
      "K": 46,
      "L": 47,
      "M": 48,
      "N": 49,
      "O": 50,
      "P": 51,
      "Q": 52,
      "R": 53,
      "S": 54,
      "T": 55,
      "U": 56,
      "V": 57,
      "W": 58,
      "X": 59,
      "Y": 60,
      "Z": 61,
      "[": 62,
      "\\": 63,
      "]": 64,
      "^": 65,
      "_": 66,
      "`": 67,
      "a": 68,
      "b": 69,
      "c": 70,
      "d": 71,
      "e": 72,
      "f": 73,
      "g": 74,
      "h": 75,
      "i": 76,
      "j": 77,
      "k": 78,
      "l": 79,
      "m": 80,
      "n": 81,
      "o": 82,
      "p": 83,
      "q": 84,
      "r": 85,
      "s": 86,
      "t": 87,
      "u": 88,
      "v": 89,
      "w": 90,
      "x": 91,
      "y": 92,
      "z": 93,
      "{": 94,
      "|": 95,
      "}": 96,
      "~": 97,
      "¡": 98,
      "¢": 99,
      "£": 100,
      "¤": 101,
      "¥": 102,
      "¦": 103,
      "§": 104,
      "¨": 105,
      "©": 106,
      "ª": 107,
      "«": 108,
      "¬": 109,
      "®": 110,
      "¯": 111,
      "°": 112,
      "±": 113,
      "²": 114,
      "³": 115,
      "´": 116,
      "µ": 117,
      "¶": 118,
      "·": 119,
      "¸": 120,
      "¹": 121,
      "º": 122,
      "»": 123,
      "¼": 124,
      "½": 125,
      "¾": 126,
      "¿": 127,
      "À": 128,
      "Á": 129,
      "Â": 130,
      "Ã": 131,
      "Ä": 132,
      "Å": 133,
      "Æ": 134,
      "Ç": 135,
      "È": 136,
      "É": 137,
      "Ê": 138,
      "Ë": 139,
      "Ì": 140,
      "Í": 141,
      "Î": 142,
      "Ï": 143,
      "Ð": 144,
      "Ñ": 145,
      "Ò": 146,
      "Ó": 147,
      "Ô": 148,
      "Õ": 149,
      "Ö": 150,
      "×": 151,
      "Ø": 152,
      "Ù": 153,
      "Ú": 154,
      "Û": 155,
      "Ü": 156,
      "Ý": 157,
      "Þ": 158,
      "ß": 159,
      "à": 160,
      "á": 161,
      "â": 162,
      "ã": 163,
      "ä": 164,
      "å": 165,
      "æ": 166,
      "ç": 167,
      "è": 168,
      "é": 169,
      "ê": 170,
      "ë": 171,
      "ì": 172,
      "í": 173,
      "î": 174,
      "ï": 175,
      "ð": 176,
      "ñ": 177,
      "ò": 178,
      "ó": 179,
      "ô": 180,
      "õ": 181,
      "ö": 182,
      "÷": 183,
      "ø": 184,
      "ù": 185,
      "ú": 186,
      "û": 187,
      "ü": 188,
      "ý": 189,
      "þ": 190,
      "ÿ": 191,
      "Ā": 192,
      "ā": 193,
      "Ă": 194,
      "ă": 195,
      "Ą": 196,
      "ą": 197,
      "Ć": 198,
      "ć": 199,
      "Ĉ": 200,
      "ĉ": 201,
      "Ċ": 202,
      "ċ": 203,
      "Č": 204,
      "č": 205,
      "Ď": 206,
      "ď": 207,
      "Đ": 208,
      "đ": 209,
      "Ē": 210,
      "ē": 211,
      "Ĕ": 212,
      "ĕ": 213,
      "Ė": 214,
      "ė": 215,
      "Ę": 216,
      "ę": 217,
      "Ě": 218,
      "ě": 219,
      "Ĝ": 220,
      "ĝ": 221,
      "Ğ": 222,
      "ğ": 223,
      "Ġ": 224,
      "ġ": 225,
      "Ģ": 226,
      "ģ": 227,
      "Ĥ": 228,
      "ĥ": 229,
      "Ħ": 230,
      "ħ": 231,
      "Ĩ": 232,
      "ĩ": 233,
      "Ī": 234,
      "ī": 235,
      "Ĭ": 236,
      "ĭ": 237,
      "Į": 238,
      "į": 239,
      "İ": 240,
      "ı": 241,
      "Ĳ": 242,
      "ĳ": 243,
      "Ĵ": 244,
      "ĵ": 245,
      "Ķ": 246,
      "ķ": 247,
      "ĸ": 248,
      "Ĺ": 249,
      "ĺ": 250,
      "Ļ": 251,
      "ļ": 252,
      "Ľ": 253,
      "ľ": 254,
      "Ŀ": 255,
      "ŀ": 256,
      "Ł": 257,
      "ł": 258,
      "Ń": 259,
      "Ġa": 260,
      "nd": 261,
      "on": 262,
      "<|": 263,
      "|>": 264,
      "is": 265,
      "at": 266,
      "Ġc": 267,
      "an": 268,
      "er": 269,
      "end": 270,
      "te": 271,
      "Ġt": 272,
      "he": 273,
      "of": 274,
      "ou": 275,
      "ant": 276,
      "ss": 277,
      "ist": 278,
      "re": 279,
      "ssist": 280,
      "ssistant": 281,
      "Ġcon": 282,
      "ofte": 283,
      "xt": 284,
      "endofte": 285,
      "endoftext": 286,
      ".<|": 287,
      "Ġf": 288,
      "al": 289,
      "ion": 290,
      "ri": 291,
      "hel": 292,
      "help": 293,
      "Ġhelp": 294,
      "us": 295,
      "ĠF": 296,
      "in": 297,
      "lat": 298,
      "Ġand": 299,
      "ly": 300,
      "bo": 301,
      "ver": 302,
      "ĠFlat": 303,
      "ul": 304,
      "Ġare": 305,
      "assistant": 306,
      "user": 307,
      "bot": 308,
      "ĠFlatbot": 309,
      "ation": 310,
      "vers": 311,
      "Ġm": 312,
      "Ġassistant": 313,
      "Ġconvers": 314,
      "Ġconversation": 315,
      "Ġconversational": 316,
      "ful": 317,
      "ise": 318,
      "Ġfri": 319,
      "Ġfriend": 320,
      "You": 321,
      "Ġhelpful": 322,
      "Ġfriendly": 323,
      "cise": 324,
      "Ġconcise": 325,
      "es": 326,
      "Ġth": 327,
      "Ġthe": 328,
      "Ġw": 329,
      "it": 330,
      "Ġto": 331,
      "Ġs": 332,
      "Ġis": 333,
      "Ġy": 334,
      "Ġyou": 335,
      "ĠW": 336,
      "âĢ": 337,
      "ĠâĢ": 338,
      "ĠâĢĶ": 339,
      "or": 340,
      "el": 341,
      "ar": 342,
      "Ġl": 343,
      "Ġme": 344,
      "ing": 345,
      "Ġthat": 346,
      "est": 347,
      "ic": 348,
      "Ġin": 349,
      "ĠH": 350,
      "Ġd": 351,
      "ow": 352,
      "Ġp": 353,
      "Ġh": 354,
      "Ġon": 355,
      "ve": 356,
      "Ġ1": 357,
      "th": 358,
      "ĠI": 359,
      "ol": 360,
      "Ġ'": 361,
      "om": 362,
      "ap": 363,
      "en": 364,
      "ĠWh": 365,
      "se": 366,
      "op": 367,
      "qu": 368,
      "ĠĠ": 369,
      "ĠA": 370,
      "Ġg": 371,
      "od": 372,
      "Ġ3": 373,
      "Ġ2": 374,
      "ĠT": 375,
      "Ġqu": 376,
      "Ġof": 377,
      "le": 378,
      "up": 379,
      "as": 380,
      "estion": 381,
      "Ġquestion": 382,
      "Ġb": 383,
      "ere": 384,
      "Ġn": 385,
      "Ġup": 386,
      "'s": 387,
      "?<|": 388,
      "ope": 389,
      "yth": 390,
      "et": 391,
      "ĠHope": 392,
      "Su": 393,
      "``": 394,
      "Ġ4": 395,
      "ĠC": 396,
      "ay": 397,
      "ĠWhat": 398,
      "ood": 399,
      "Ġthis": 400,
      "if": 401,
      "Ġe": 402,
      "Ġre": 403,
      "ld": 404,
      "Ġone": 405,
      "Ġ5": 406,
      "ey": 407,
      "Sure": 408,
      "and": 409,
      "ith": 410,
      "Ġwith": 411,
      "ke": 412,
      "ree": 413,
      "Ġfor": 414,
      "Ġ6": 415,
      "ct": 416,
      "ur": 417,
      "Ġit": 418,
      "Ġmo": 419,
      "ick": 420,
      "nt": 421,
      "ĠS": 422,
      "ce": 423,
      "ĠP": 424,
      "Ġcap": 425,
      "ital": 426,
      "Ġcapital": 427,
      "Qu": 428,
      "ute": 429,
      "Ġha": 430,
      "Ġcan": 431,
      "ive": 432,
      "Hey": 433,
      "ĠL": 434,
      "eg": 435,
      "Quick": 436,
      "Ġ7": 437,
      "Ġk": 438,
      "Ġli": 439,
      "il": 440,
      "Ġel": 441,
      "our": 442,
      "Ġif": 443,
      "st": 444,
      "xp": 445,
      "ĠAn": 446,
      "Ġhave": 447,
      "ra": 448,
      "now": 449,
      "um": 450,
      "ro": 451,
      "low": 452,
      "un": 453,
      "ything": 454,
      "Ġknow": 455,
      "Ġlike": 456,
      "ĠG": 457,
      "Ġexp": 458,
      "Ġte": 459,
      "ars": 460,
      "Ġelse": 461,
      "ind": 462,
      "ed": 463,
      "Ġ8": 464,
      "ch": 465,
      "Ġfree": 466,
      "ĠFe": 467,
      "Ġmore": 468,
      "'d": 469,
      "Ġfol": 470,
      "ust": 471,
      "ould": 472,
      "Ġfollow": 473,
      "ĠAnything": 474,
      "Ġhelps": 475,
      "ĠFeel": 476,
      "Ġcle": 477,
      "os": 478,
      "Ġthere": 479,
      "Ġclears": 480,
      "ython": 481,
      "```": 482,
      "ĠWant": 483,
      "Ġexpand": 484,
      "ĠR": 485,
      "rite": 486,
      "ĠLet": 487,
      "ount": 488,
      "'t": 489,
      "ĊĠĠ": 490,
      "ond": 491,
      "all": 492,
      "ans": 493,
      "gh": 494,
      "app": 495,
      "Ġwas": 496,
      "am": 497,
      "ĠM": 498,
      "Ġgo": 499,
      "Ġab": 500,
      "ell": 501,
      "ĠThe": 502,
      "Ġ9": 503,
      "omp": 504,
      "de": 505,
      "ain": 506,
      "gest": 507,
      "appy": 508,
      "ous": 509,
      "ent": 510,
      "Ġ=": 511,
      "hat": 512,
      "ir": 513,
      "Good": 514,
      "ll": 515,
      "late": 516,
      "ter": 517,
      "ite": 518,
      "sol": 519,
      "uri": 520,
      "Ġdo": 521,
      "Ġgood": 522,
      "out": 523,
      "Ġmind": 524,
      "Hi": 525,
      "Ġret": 526,
      "urn": 527,
      "Yes": 528,
      "rans": 529,
      "ĊĠĠĠ": 530,
      "Ġleg": 531,
      "solute": 532,
      "Happy": 533,
      "Ġcour": 534,
      "Ġst": 535,
      "Of": 536,
      "Ġcourse": 537,
      "Ġlegs": 538,
      "Ġman": 539,
      "Ġdon": 540,
      "Ab": 541,
      "solutely": 542,
      "Absolutely": 543,
      "Here": 544,
      "Ġreturn": 545,
      "Ġway": 546,
      "ranslate": 547,
      "Ġwond": 548,
      "Ġwonder": 549,
      "Ġcuri": 550,
      "Ġlar": 551,
      "Ġcurious": 552,
      "Ġtell": 553,
      "Ġwondering": 554,
      "ad": 555,
      "Ġmany": 556,
      "Just": 557,
      "Ġ*": 558,
      "Ġlargest": 559,
      "Ġhas": 560,
      "ut": 561,
      "ia": 562,
      "Ġo": 563,
      "Ġabout": 564,
      "ity": 565,
      "Could": 566,
      "ght": 567,
      "Ġ10": 568,
      "By": 569,
      "If": 570,
      "Ġat": 571,
      "ĠE": 572,
      "Ġan": 573,
      "ĠN": 574,
      "ompute": 575,
      "ish": 576,
      "ĠB": 577,
      "ction": 578,
      "Ġyour": 579,
      "'m": 580,
      "Ġche": 581,
      "ĠTranslate": 582,
      "ĠWrite": 583,
      "ĠHow": 584,
      "ted": 585,
      "Ġsy": 586,
      "Ġ+": 587,
      "rom": 588,
      "ok": 589,
      "ater": 590,
      "Ġ(": 591,
      "):": 592,
      "Ġdoes": 593,
      "Ġfun": 594,
      "ms": 595,
      "Ġor": 596,
      "im": 597,
      "ot": 598,
      "day": 599,
      "'.": 600,
      "ers": 601,
      "ec": 602,
      "Ġby": 603,
      "Ġfunction": 604,
      "Ġne": 605,
      "ian": 606,
      "python": 607,
      "def": 608,
      "ĠIt": 609,
      "Ġsm": 610,
      "Ġsmall": 611,
      "Ġwor": 612,
      "Ġas": 613,
      "Ġfrom": 614,
      "Ġpl": 615,
      "ich": 616,
      "ĠJ": 617,
      "ass": 618,
      "Ġcom": 619,
      "ĠWho": 620,
      "ĠPython": 621,
      "ip": 622,
      "osit": 623,
      "ĠCompute": 624,
      "ral": 625,
      "id": 626,
      "ew": 627,
      "Ġwro": 628,
      "Ġwrote": 629,
      "ositive": 630,
      "Ġr": 631,
      "ten": 632,
      "ese": 633,
      "ck": 634,
      "Ġhum": 635,
      "ical": 636,
      "ight": 637,
      "ĠD": 638,
      "ep": 639,
      "ren": 640,
      "els": 641,
      "mical": 642,
      "Ġchemical": 643,
      "Ġbo": 644,
      "man": 645,
      "ative": 646,
      "Ġcount": 647,
      "ort": 648,
      "pan": 649,
      "anet": 650,
      "utral": 651,
      "egative": 652,
      "panish": 653,
      "lo": 654,
      "ste": 655,
      "ge": 656,
      "gu": 657,
      "items": 658,
      "Ġthree": 659,
      "ĠSpanish": 660,
      "Ġ/": 661,
      "Ġ19": 662,
      "ips": 663,
      "ays": 664,
      "rench": 665,
      "ine": 666,
      "Ġworld": 667,
      "ĠFrench": 668,
      "The": 669,
      "lass": 670,
      "Ġtips": 671,
      "ari": 672,
      "Ġcity": 673,
      "Ġde": 674,
      "ard": 675,
      "Ġ```": 676,
      "ĠO": 677,
      "erman": 678,
      "ry": 679,
      "ĠTell": 680,
      "Ġwh": 681,
      "Ġ-": 682,
      "ĠGerman": 683,
      "cean": 684,
      "Ġhuman": 685,
      "Ġ31": 686,
      "Ġwhat": 687,
      "Ġv": 688,
      "Ġdays": 689,
      "Ġplanet": 690,
      "ath": 691,
      "ĠHi": 692,
      "ify": 693,
      "gen": 694,
      "ill": 695,
      "Ġpositive": 696,
      "ze": 697,
      "act": 698,
      "Ġcont": 699,
      "ear": 700,
      "What": 701,
      "Ġus": 702,
      "Ġnegative": 703,
      "Ġneutral": 704,
      "lassify": 705,
      "Ġcomes": 706,
      "ĠK": 707,
      "ate": 708,
      "ild": 709,
      "Ġpol": 710,
      "wo": 711,
      "Ġaf": 712,
      "irst": 713,
      "uild": 714,
      "Ġafter": 715,
      "ig": 716,
      "ven": 717,
      "enten": 718,
      "ĠItal": 719,
      "ĠGive": 720,
      "ure": 721,
      "Ġfirst": 722,
      "ak": 723,
      "ber": 724,
      "Ġsmallest": 725,
      "Ġtra": 726,
      "ph": 727,
      "ac": 728,
      "Ġtwo": 729,
      "arth": 730,
      "ase": 731,
      "Ġ30": 732,
      "ĠItalian": 733,
      "'.<|": 734,
      "ub": 735,
      "Ġ29": 736,
      "Ġsh": 737,
      "entence": 738,
      "Ġdes": 739,
      "Ġ11": 740,
      "ĠEarth": 741,
      "ory": 742,
      "ĠCh": 743,
      "stem": 744,
      "ank": 745,
      "mbo": 746,
      "ello": 747,
      "Ġsymbo": 748,
      "Ġsymbol": 749,
      "Ġmod": 750,
      "ome": 751,
      "Ġlon": 752,
      "Ġpro": 753,
      "Ġwater": 754,
      "mari": 755,
      "Ġ20": 756,
      "Ġ34": 757,
      "Ġsentence": 758,
      "Ġ32": 759,
      "ab": 760,
      "ng": 761,
      "ĠWhich": 762,
      "are": 763,
      "Ġpain": 764,
      "Ġ17": 765,
      "ĠĠĠĠ": 766,
      "Ġpainted": 767,
      "Ġcomp": 768,
      "Ġstand": 769,
      "build": 770,
      "Ġse": 771,
      "Ġsol": 772,
      "art": 773,
      "Ġch": 774,
      "ĠCount": 775,
      "Ġbe": 776,
      "Ġnam": 777,
      "Ġj": 778,
      "ĠClassify": 779,
      "ning": 780,
      "Ġhow": 781,
      "Ġmost": 782,
      "Ġcountry": 783,
      "ĠSu": 784,
      "itely": 785,
      "Ġpolitely": 786,
      "vity": 787,
      "ake": 788,
      "ĠFlatbuild": 789,
      "Ġsp": 790,
      "ue": 791,
      "Ġ28": 792,
      "co": 793,
      "',": 794,
      "Ġ14": 795,
      "omm": 796,
      "inent": 797,
      "Ġcontinent": 798,
      "Ġsolar": 799,
      "Ġ37": 800,
      "xy": 801,
      "Ġdid": 802,
      "Ġ36": 803,
      "Ġ25": 804,
      "ci": 805,
      "Ġ40": 806,
      "ewrite": 807,
      "marize": 808,
      "Ġ24": 809,
      "Ġocean": 810,
      "apan": 811,
      "Ġ33": 812,
      "Ġ35": 813,
      "ric": 814,
      "Ġ27": 815,
      "atur": 816,
      "Ġ23": 817,
      "rou": 818,
      "ĠJapan": 819,
      "Ġ18": 820,
      "ide": 821,
      "ĠTh": 822,
      "Ġnum": 823,
      "Ġ16": 824,
      "ĠJapanese": 825,
      "ius": 826,
      "Ġ26": 827,
      "Ġname": 828,
      "Ġsystem": 829,
      "ĠHello": 830,
      "Ġ38": 831,
      "og": 832,
      "Ġform": 833,
      "rod": 834,
      "ult": 835,
      "Ġ15": 836,
      "rodu": 837,
      "dy": 838,
      "Ġhe": 839,
      "reat": 840,
      "alk": 841,
      "ĠAI": 842,
      "Ġ39": 843,
      "Wh": 844,
      "good": 845,
      "ork": 846,
      "Ġ12": 847,
      "Ġtrain": 848,
      "mmarize": 849,
      "uss": 850,
      "Ġ22": 851,
      "to": 852,
      "by": 853,
      "Ġ42": 854,
      "ugu": 855,
      "Ġen": 856,
      "Ġsun": 857,
      "Ġmodel": 858,
      "oin": 859,
      "elsius": 860,
      "Ġ43": 861,
      "xygen": 862,
      "one": 863,
      "Ġal": 864,
      "ore": 865,
      "Ġ41": 866,
      "Ġ44": 867,
      "ĠPort": 868,
      "Ġwe": 869,
      "bon": 870,
      "Ġ21": 871,
      "lease": 872,
      "Ġ47": 873,
      "ach": 874,
      "mos": 875,
      "Ġ50": 876,
      "uguese": 877,
      "Ġ13": 878,
      "Ġ45": 879,
      "ĠRewrite": 880,
      "ik": 881,
      "book": 882,
      "und": 883,
      "Ġbook": 884,
      "Ġlist": 885,
      "Ġ46": 886,
      "Ġatmos": 887,
      "Ġatmosph": 888,
      "ĠHey": 889,
      "ring": 890,
      "ĠPortuguese": 891,
      "Ġbu": 892,
      "Ġits": 893,
      "ag": 894,
      "Ġour": 895,
      "ĊĠĠĠĠĠĠ": 896,
      "Ġthan": 897,
      "Ġ48": 898,
      "eric": 899,
      "ally": 900,
      "Ġle": 901,
      "water": 902,
      "ĠSummarize": 903,
      "iz": 904,
      "ĠCelsius": 905,
      "ix": 906,
      "Ġ49": 907,
      "Ġ0": 908,
      "ance": 909,
      "hes": 910,
      "Ġ52": 911,
      "iling": 912,
      "Ġar": 913,
      "Ġgas": 914,
      "ĠRuss": 915,
      "pl": 916,
      "cat": 917,
      "ram": 918,
      "Ġsub": 919,
      "Ġ51": 920,
      "ert": 921,
      "rial": 922,
      "```<|": 923,
      "io": 924,
      "ants": 925,
      "hello": 926,
      "thank": 927,
      "Ġhaik": 928,
      "Ġhaiku": 929,
      "fer": 930,
      "Ġ56": 931,
      "Ġ60": 932,
      "gain": 933,
      "land": 934,
      "Ġagain": 935,
      "Ġchat": 936,
      "Ġyear": 937,
      "ence": 938,
      "Ġ59": 939,
      "goodby": 940,
      "goodbye": 941,
      "ĠU": 942,
      "Ġ53": 943,
      "Ġ63": 944,
      "orning": 945,
      "Ġ54": 946,
      "Ġ61": 947,
      "hen": 948,
      "Ġtoday": 949,
      "ommend": 950,
      "Ġcal": 951,
      "very": 952,
      "Ġmount": 953,
      "Ġmountain": 954,
      "Ġdis": 955,
      "old": 956,
      "Ġ55": 957,
      "Ġoxygen": 958,
      "Ġwhich": 959,
      "Ġlongest": 960,
      "aus": 961,
      "imp": 962,
      "ang": 963,
      "ina": 964,
      "Ġ57": 965,
      "Ġnot": 966,
      "Ġmoon": 967,
      "Ġcomm": 968,
      "oint": 969,
      "led": 970,
      "bers": 971,
      "ect": 972,
      "Ġair": 973,
      "Ġsome": 974,
      "Ġ78": 975,
      "Ġ62": 976,
      "Ġcar": 977,
      "elf": 978,
      "etw": 979,
      "age": 980,
      "Ġ58": 981,
      "Ġreturns": 982,
      "ĠSt": 983,
      "Ġcheck": 984,
      "red": 985,
      "Ġno": 986,
      "Ġfour": 987,
      "rit": 988,
      "ilt": 989,
      "ecommend": 990,
      "Ġbuilt": 991,
      "ron": 992,
      "sor": 993,
      "ãģ": 994,
      "ther": 995,
      "ĠCould": 996,
      "Ġ100": 997,
      "Ġcalled": 998,
      "Ġ64": 999,
      "Ġ65": 1000,
      "ice": 1001,
      "ĠAs": 1002,
      "roduce": 1003,
      "yes": 1004,
      "ĠWhy": 1005,
      "Ġnatur": 1006,
      "no": 1007,
      "ĠRussian": 1008,
      "'re": 1009,
      "read": 1010,
      "Ġpop": 1011,
      "Ġop": 1012,
      "Ġyours": 1013,
      "rop": 1014,
      "lue": 1015,
      "osy": 1016,
      "Ġdesert": 1017,
      "cent": 1018,
      "hou": 1019,
      "Ġ70": 1020,
      "house": 1021,
      "Ġpre": 1022,
      "Ġ66": 1023,
      "Ġ69": 1024,
      "Ġstands": 1025,
      "ĠAf": 1026,
      "Ġ67": 1027
    },
    "merges": [
      [
        "Ġ",
        "a"
      ],
      [
        "n",
        "d"
      ],
      [
        "o",
        "n"
      ],
      [
        "<",
        "|"
      ],
      [
        "|",
        ">"
      ],
      [
        "i",
        "s"
      ],
      [
        "a",
        "t"
      ],
      [
        "Ġ",
        "c"
      ],
      [
        "a",
        "n"
      ],
      [
        "e",
        "r"
      ],
      [
        "e",
        "nd"
      ],
      [
        "t",
        "e"
      ],
      [
        "Ġ",
        "t"
      ],
      [
        "h",
        "e"
      ],
      [
        "o",
        "f"
      ],
      [
        "o",
        "u"
      ],
      [
        "an",
        "t"
      ],
      [
        "s",
        "s"
      ],
      [
        "is",
        "t"
      ],
      [
        "r",
        "e"
      ],
      [
        "ss",
        "ist"
      ],
      [
        "ssist",
        "ant"
      ],
      [
        "Ġc",
        "on"
      ],
      [
        "of",
        "te"
      ],
      [
        "x",
        "t"
      ],
      [
        "end",
        "ofte"
      ],
      [
        "endofte",
        "xt"
      ],
      [
        ".",
        "<|"
      ],
      [
        "Ġ",
        "f"
      ],
      [
        "a",
        "l"
      ],
      [
        "i",
        "on"
      ],
      [
        "r",
        "i"
      ],
      [
        "he",
        "l"
      ],
      [
        "hel",
        "p"
      ],
      [
        "Ġ",
        "help"
      ],
      [
        "u",
        "s"
      ],
      [
        "Ġ",
        "F"
      ],
      [
        "i",
        "n"
      ],
      [
        "l",
        "at"
      ],
      [
        "Ġa",
        "nd"
      ],
      [
        "l",
        "y"
      ],
      [
        "b",
        "o"
      ],
      [
        "v",
        "er"
      ],
      [
        "ĠF",
        "lat"
      ],
      [
        "u",
        "l"
      ],
      [
        "Ġa",
        "re"
      ],
      [
        "a",
        "ssistant"
      ],
      [
        "us",
        "er"
      ],
      [
        "bo",
        "t"
      ],
      [
        "ĠFlat",
        "bot"
      ],
      [
        "at",
        "ion"
      ],
      [
        "ver",
        "s"
      ],
      [
        "Ġ",
        "m"
      ],
      [
        "Ġa",
        "ssistant"
      ],
      [
        "Ġcon",
        "vers"
      ],
      [
        "Ġconvers",
        "ation"
      ],
      [
        "Ġconversation",
        "al"
      ],
      [
        "f",
        "ul"
      ],
      [
        "is",
        "e"
      ],
      [
        "Ġf",
        "ri"
      ],
      [
        "Ġfri",
        "end"
      ],
      [
        "Y",
        "ou"
      ],
      [
        "Ġhelp",
        "ful"
      ],
      [
        "Ġfriend",
        "ly"
      ],
      [
        "c",
        "ise"
      ],
      [
        "Ġcon",
        "cise"
      ],
      [
        "e",
        "s"
      ],
      [
        "Ġt",
        "h"
      ],
      [
        "Ġt",
        "he"
      ],
      [
        "Ġ",
        "w"
      ],
      [
        "i",
        "t"
      ],
      [
        "Ġt",
        "o"
      ],
      [
        "Ġ",
        "s"
      ],
      [
        "Ġ",
        "is"
      ],
      [
        "Ġ",
        "y"
      ],
      [
        "Ġy",
        "ou"
      ],
      [
        "Ġ",
        "W"
      ],
      [
        "â",
        "Ģ"
      ],
      [
        "Ġ",
        "âĢ"
      ],
      [
        "ĠâĢ",
        "Ķ"
      ],
      [
        "o",
        "r"
      ],
      [
        "e",
        "l"
      ],
      [
        "a",
        "r"
      ],
      [
        "Ġ",
        "l"
      ],
      [
        "Ġm",
        "e"
      ],
      [
        "in",
        "g"
      ],
      [
        "Ġth",
        "at"
      ],
      [
        "es",
        "t"
      ],
      [
        "i",
        "c"
      ],
      [
        "Ġ",
        "in"
      ],
      [
        "Ġ",
        "H"
      ],
      [
        "Ġ",
        "d"
      ],
      [
        "o",
        "w"
      ],
      [
        "Ġ",
        "p"
      ],
      [
        "Ġ",
        "h"
      ],
      [
        "Ġ",
        "on"
      ],
      [
        "v",
        "e"
      ],
      [
        "Ġ",
        "1"
      ],
      [
        "t",
        "h"
      ],
      [
        "Ġ",
        "I"
      ],
      [
        "o",
        "l"
      ],
      [
        "Ġ",
        "'"
      ],
      [
        "o",
        "m"
      ],
      [
        "a",
        "p"
      ],
      [
        "e",
        "n"
      ],
      [
        "ĠW",
        "h"
      ],
      [
        "s",
        "e"
      ],
      [
        "o",
        "p"
      ],
      [
        "q",
        "u"
      ],
      [
        "Ġ",
        "Ġ"
      ],
      [
        "Ġ",
        "A"
      ],
      [
        "Ġ",
        "g"
      ],
      [
        "o",
        "d"
      ],
      [
        "Ġ",
        "3"
      ],
      [
        "Ġ",
        "2"
      ],
      [
        "Ġ",
        "T"
      ],
      [
        "Ġ",
        "qu"
      ],
      [
        "Ġ",
        "of"
      ],
      [
        "l",
        "e"
      ],
      [
        "u",
        "p"
      ],
      [
        "a",
        "s"
      ],
      [
        "est",
        "ion"
      ],
      [
        "Ġqu",
        "estion"
      ],
      [
        "Ġ",
        "b"
      ],
      [
        "er",
        "e"
      ],
      [
        "Ġ",
        "n"
      ],
      [
        "Ġ",
        "up"
      ],
      [
        "'",
        "s"
      ],
      [
        "?",
        "<|"
      ],
      [
        "op",
        "e"
      ],
      [
        "y",
        "th"
      ],
      [
        "e",
        "t"
      ],
      [
        "ĠH",
        "ope"
      ],
      [
        "S",
        "u"
      ],
      [
        "`",
        "`"
      ],
      [
        "Ġ",
        "4"
      ],
      [
        "Ġ",
        "C"
      ],
      [
        "a",
        "y"
      ],
      [
        "ĠWh",
        "at"
      ],
      [
        "o",
        "od"
      ],
      [
        "Ġth",
        "is"
      ],
      [
        "i",
        "f"
      ],
      [
        "Ġ",
        "e"
      ],
      [
        "Ġ",
        "re"
      ],
      [
        "l",
        "d"
      ],
      [
        "Ġon",
        "e"
      ],
      [
        "Ġ",
        "5"
      ],
      [
        "e",
        "y"
      ],
      [
        "Su",
        "re"
      ],
      [
        "a",
        "nd"
      ],
      [
        "it",
        "h"
      ],
      [
        "Ġw",
        "ith"
      ],
      [
        "k",
        "e"
      ],
      [
        "re",
        "e"
      ],
      [
        "Ġf",
        "or"
      ],
      [
        "Ġ",
        "6"
      ],
      [
        "c",
        "t"
      ],
      [
        "u",
        "r"
      ],
      [
        "Ġ",
        "it"
      ],
      [
        "Ġm",
        "o"
      ],
      [
        "ic",
        "k"
      ],
      [
        "n",
        "t"
      ],
      [
        "Ġ",
        "S"
      ],
      [
        "c",
        "e"
      ],
      [
        "Ġ",
        "P"
      ],
      [
        "Ġc",
        "ap"
      ],
      [
        "it",
        "al"
      ],
      [
        "Ġcap",
        "ital"
      ],
      [
        "Q",
        "u"
      ],
      [
        "u",
        "te"
      ],
      [
        "Ġh",
        "a"
      ],
      [
        "Ġc",
        "an"
      ],
      [
        "i",
        "ve"
      ],
      [
        "H",
        "ey"
      ],
      [
        "Ġ",
        "L"
      ],
      [
        "e",
        "g"
      ],
      [
        "Qu",
        "ick"
      ],
      [
        "Ġ",
        "7"
      ],
      [
        "Ġ",
        "k"
      ],
      [
        "Ġl",
        "i"
      ],
      [
        "i",
        "l"
      ],
      [
        "Ġ",
        "el"
      ],
      [
        "ou",
        "r"
      ],
      [
        "Ġ",
        "if"
      ],
      [
        "s",
        "t"
      ],
      [
        "x",
        "p"
      ],
      [
        "ĠA",
        "n"
      ],
      [
        "Ġha",
        "ve"
      ],
      [
        "r",
        "a"
      ],
      [
        "n",
        "ow"
      ],
      [
        "u",
        "m"
      ],
      [
        "r",
        "o"
      ],
      [
        "l",
        "ow"
      ],
      [
        "u",
        "n"
      ],
      [
        "yth",
        "ing"
      ],
      [
        "Ġk",
        "now"
      ],
      [
        "Ġli",
        "ke"
      ],
      [
        "Ġ",
        "G"
      ],
      [
        "Ġe",
        "xp"
      ],
      [
        "Ġ",
        "te"
      ],
      [
        "ar",
        "s"
      ],
      [
        "Ġel",
        "se"
      ],
      [
        "i",
        "nd"
      ],
      [
        "e",
        "d"
      ],
      [
        "Ġ",
        "8"
      ],
      [
        "c",
        "h"
      ],
      [
        "Ġf",
        "ree"
      ],
      [
        "ĠF",
        "e"
      ],
      [
        "Ġmo",
        "re"
      ],
      [
        "'",
        "d"
      ],
      [
        "Ġf",
        "ol"
      ],
      [
        "us",
        "t"
      ],
      [
        "ou",
        "ld"
      ],
      [
        "Ġfol",
        "low"
      ],
      [
        "ĠAn",
        "ything"
      ],
      [
        "Ġhelp",
        "s"
      ],
      [
        "ĠFe",
        "el"
      ],
      [
        "Ġc",
        "le"
      ],
      [
        "o",
        "s"
      ],
      [
        "Ġth",
        "ere"
      ],
      [
        "Ġcle",
        "ars"
      ],
      [
        "yth",
        "on"
      ],
      [
        "``",
        "`"
      ],
      [
        "ĠW",
        "ant"
      ],
      [
        "Ġexp",
        "and"
      ],
      [
        "Ġ",
        "R"
      ],
      [
        "ri",
        "te"
      ],
      [
        "ĠL",
        "et"
      ],
      [
        "ou",
        "nt"
      ],
      [
        "'",
        "t"
      ],
      [
        "Ċ",
        "ĠĠ"
      ],
      [
        "o",
        "nd"
      ],
      [
        "al",
        "l"
      ],
      [
        "an",
        "s"
      ],
      [
        "g",
        "h"
      ],
      [
        "ap",
        "p"
      ],
      [
        "Ġw",
        "as"
      ],
      [
        "a",
        "m"
      ],
      [
        "Ġ",
        "M"
      ],
      [
        "Ġg",
        "o"
      ],
      [
        "Ġa",
        "b"
      ],
      [
        "el",
        "l"
      ],
      [
        "ĠT",
        "he"
      ],
      [
        "Ġ",
        "9"
      ],
      [
        "om",
        "p"
      ],
      [
        "d",
        "e"
      ],
      [
        "a",
        "in"
      ],
      [
        "g",
        "est"
      ],
      [
        "app",
        "y"
      ],
      [
        "ou",
        "s"
      ],
      [
        "en",
        "t"
      ],
      [
        "Ġ",
        "="
      ],
      [
        "h",
        "at"
      ],
      [
        "i",
        "r"
      ],
      [
        "G",
        "ood"
      ],
      [
        "l",
        "l"
      ],
      [
        "lat",
        "e"
      ],
      [
        "t",
        "er"
      ],
      [
        "i",
        "te"
      ],
      [
        "s",
        "ol"
      ],
      [
        "u",
        "ri"
      ],
      [
        "Ġd",
        "o"
      ],
      [
        "Ġg",
        "ood"
      ],
      [
        "ou",
        "t"
      ],
      [
        "Ġm",
        "ind"
      ],
      [
        "H",
        "i"
      ],
      [
        "Ġre",
        "t"
      ],
      [
        "ur",
        "n"
      ],
      [
        "Y",
        "es"
      ],
      [
        "r",
        "ans"
      ],
      [
        "ĊĠĠ",
        "Ġ"
      ],
      [
        "Ġl",
        "eg"
      ],
      [
        "sol",
        "ute"
      ],
      [
        "H",
        "appy"
      ],
      [
        "Ġc",
        "our"
      ],
      [
        "Ġs",
        "t"
      ],
      [
        "O",
        "f"
      ],
      [
        "Ġcour",
        "se"
      ],
      [
        "Ġleg",
        "s"
      ],
      [
        "Ġm",
        "an"
      ],
      [
        "Ġd",
        "on"
      ],
      [
        "A",
        "b"
      ],
      [
        "solute",
        "ly"
      ],
      [
        "Ab",
        "solutely"
      ],
      [
        "H",
        "ere"
      ],
      [
        "Ġret",
        "urn"
      ],
      [
        "Ġw",
        "ay"
      ],
      [
        "rans",
        "late"
      ],
      [
        "Ġw",
        "ond"
      ],
      [
        "Ġwond",
        "er"
      ],
      [
        "Ġc",
        "uri"
      ],
      [
        "Ġl",
        "ar"
      ],
      [
        "Ġcuri",
        "ous"
      ],
      [
        "Ġte",
        "ll"
      ],
      [
        "Ġwonder",
        "ing"
      ],
      [
        "a",
        "d"
      ],
      [
        "Ġman",
        "y"
      ],
      [
        "J",
        "ust"
      ],
      [
        "Ġ",
        "*"
      ],
      [
        "Ġlar",
        "gest"
      ],
      [
        "Ġh",
        "as"
      ],
      [
        "u",
        "t"
      ],
      [
        "i",
        "a"
      ],
      [
        "Ġ",
        "o"
      ],
      [
        "Ġab",
        "out"
      ],
      [
        "it",
        "y"
      ],
      [
        "C",
        "ould"
      ],
      [
        "gh",
        "t"
      ],
      [
        "Ġ1",
        "0"
      ],
      [
        "B",
        "y"
      ],
      [
        "I",
        "f"
      ],
      [
        "Ġa",
        "t"
      ],
      [
        "Ġ",
        "E"
      ],
      [
        "Ġa",
        "n"
      ],
      [
        "Ġ",
        "N"
      ],
      [
        "omp",
        "ute"
      ],
      [
        "is",
        "h"
      ],
      [
        "Ġ",
        "B"
      ],
      [
        "ct",
        "ion"
      ],
      [
        "Ġyou",
        "r"
      ],
      [
        "'",
        "m"
      ],
      [
        "Ġc",
        "he"
      ],
      [
        "ĠT",
        "ranslate"
      ],
      [
        "ĠW",
        "rite"
      ],
      [
        "ĠH",
        "ow"
      ],
      [
        "te",
        "d"
      ],
      [
        "Ġs",
        "y"
      ],
      [
        "Ġ",
        "+"
      ],
      [
        "r",
        "om"
      ],
      [
        "o",
        "k"
      ],
      [
        "at",
        "er"
      ],
      [
        "Ġ",
        "("
      ],
      [
        ")",
        ":"
      ],
      [
        "Ġdo",
        "es"
      ],
      [
        "Ġf",
        "un"
      ],
      [
        "m",
        "s"
      ],
      [
        "Ġ",
        "or"
      ],
      [
        "i",
        "m"
      ],
      [
        "o",
        "t"
      ],
      [
        "d",
        "ay"
      ],
      [
        "'",
        "."
      ],
      [
        "er",
        "s"
      ],
      [
        "e",
        "c"
      ],
      [
        "Ġb",
        "y"
      ],
      [
        "Ġfun",
        "ction"
      ],
      [
        "Ġn",
        "e"
      ],
      [
        "i",
        "an"
      ],
      [
        "p",
        "ython"
      ],
      [
        "de",
        "f"
      ],
      [
        "ĠI",
        "t"
      ],
      [
        "Ġs",
        "m"
      ],
      [
        "Ġsm",
        "all"
      ],
      [
        "Ġw",
        "or"
      ],
      [
        "Ġa",
        "s"
      ],
      [
        "Ġf",
        "rom"
      ],
      [
        "Ġp",
        "l"
      ],
      [
        "ic",
        "h"
      ],
      [
        "Ġ",
        "J"
      ],
      [
        "a",
        "ss"
      ],
      [
        "Ġc",
        "om"
      ],
      [
        "ĠWh",
        "o"
      ],
      [
        "ĠP",
        "ython"
      ],
      [
        "i",
        "p"
      ],
      [
        "os",
        "it"
      ],
      [
        "ĠC",
        "ompute"
      ],
      [
        "r",
        "al"
      ],
      [
        "i",
        "d"
      ],
      [
        "e",
        "w"
      ],
      [
        "Ġw",
        "ro"
      ],
      [
        "Ġwro",
        "te"
      ],
      [
        "osit",
        "ive"
      ],
      [
        "Ġ",
        "r"
      ],
      [
        "te",
        "n"
      ],
      [
        "es",
        "e"
      ],
      [
        "c",
        "k"
      ],
      [
        "Ġh",
        "um"
      ],
      [
        "ic",
        "al"
      ],
      [
        "i",
        "ght"
      ],
      [
        "Ġ",
        "D"
      ],
      [
        "e",
        "p"
      ],
      [
        "re",
        "n"
      ],
      [
        "el",
        "s"
      ],
      [
        "m",
        "ical"
      ],
      [
        "Ġche",
        "mical"
      ],
      [
        "Ġ",
        "bo"
      ],
      [
        "m",
        "an"
      ],
      [
        "at",
        "ive"
      ],
      [
        "Ġc",
        "ount"
      ],
      [
        "or",
        "t"
      ],
      [
        "p",
        "an"
      ],
      [
        "an",
        "et"
      ],
      [
        "ut",
        "ral"
      ],
      [
        "eg",
        "ative"
      ],
      [
        "pan",
        "ish"
      ],
      [
        "l",
        "o"
      ],
      [
        "s",
        "te"
      ],
      [
        "g",
        "e"
      ],
      [
        "g",
        "u"
      ],
      [
        "ite",
        "ms"
      ],
      [
        "Ġth",
        "ree"
      ],
      [
        "ĠS",
        "panish"
      ],
      [
        "Ġ",
        "/"
      ],
      [
        "Ġ1",
        "9"
      ],
      [
        "ip",
        "s"
      ],
      [
        "ay",
        "s"
      ],
      [
        "ren",
        "ch"
      ],
      [
        "in",
        "e"
      ],
      [
        "Ġwor",
        "ld"
      ],
      [
        "ĠF",
        "rench"
      ],
      [
        "T",
        "he"
      ],
      [
        "l",
        "ass"
      ],
      [
        "Ġt",
        "ips"
      ],
      [
        "a",
        "ri"
      ],
      [
        "Ġc",
        "ity"
      ],
      [
        "Ġd",
        "e"
      ],
      [
        "ar",
        "d"
      ],
      [
        "Ġ",
        "```"
      ],
      [
        "Ġ",
        "O"
      ],
      [
        "er",
        "man"
      ],
      [
        "r",
        "y"
      ],
      [
        "ĠT",
        "ell"
      ],
      [
        "Ġw",
        "h"
      ],
      [
        "Ġ",
        "-"
      ],
      [
        "ĠG",
        "erman"
      ],
      [
        "ce",
        "an"
      ],
      [
        "Ġhum",
        "an"
      ],
      [
        "Ġ3",
        "1"
      ],
      [
        "Ġw",
        "hat"
      ],
      [
        "Ġ",
        "v"
      ],
      [
        "Ġd",
        "ays"
      ],
      [
        "Ġpl",
        "anet"
      ],
      [
        "at",
        "h"
      ],
      [
        "ĠH",
        "i"
      ],
      [
        "if",
        "y"
      ],
      [
        "g",
        "en"
      ],
      [
        "il",
        "l"
      ],
      [
        "Ġp",
        "ositive"
      ],
      [
        "z",
        "e"
      ],
      [
        "a",
        "ct"
      ],
      [
        "Ġcon",
        "t"
      ],
      [
        "e",
        "ar"
      ],
      [
        "W",
        "hat"
      ],
      [
        "Ġ",
        "us"
      ],
      [
        "Ġn",
        "egative"
      ],
      [
        "Ġne",
        "utral"
      ],
      [
        "lass",
        "ify"
      ],
      [
        "Ġcom",
        "es"
      ],
      [
        "Ġ",
        "K"
      ],
      [
        "at",
        "e"
      ],
      [
        "i",
        "ld"
      ],
      [
        "Ġp",
        "ol"
      ],
      [
        "w",
        "o"
      ],
      [
        "Ġa",
        "f"
      ],
      [
        "ir",
        "st"
      ],
      [
        "u",
        "ild"
      ],
      [
        "Ġaf",
        "ter"
      ],
      [
        "i",
        "g"
      ],
      [
        "ve",
        "n"
      ],
      [
        "en",
        "ten"
      ],
      [
        "ĠIt",
        "al"
      ],
      [
        "ĠG",
        "ive"
      ],
      [
        "u",
        "re"
      ],
      [
        "Ġf",
        "irst"
      ],
      [
        "a",
        "k"
      ],
      [
        "b",
        "er"
      ],
      [
        "Ġsmall",
        "est"
      ],
      [
        "Ġt",
        "ra"
      ],
      [
        "p",
        "h"
      ],
      [
        "a",
        "c"
      ],
      [
        "Ġt",
        "wo"
      ],
      [
        "ar",
        "th"
      ],
      [
        "a",
        "se"
      ],
      [
        "Ġ3",
        "0"
      ],
      [
        "ĠItal",
        "ian"
      ],
      [
        "'",
        ".<|"
      ],
      [
        "u",
        "b"
      ],
      [
        "Ġ2",
        "9"
      ],
      [
        "Ġs",
        "h"
      ],
      [
        "enten",
        "ce"
      ],
      [
        "Ġd",
        "es"
      ],
      [
        "Ġ1",
        "1"
      ],
      [
        "ĠE",
        "arth"
      ],
      [
        "or",
        "y"
      ],
      [
        "ĠC",
        "h"
      ],
      [
        "ste",
        "m"
      ],
      [
        "an",
        "k"
      ],
      [
        "m",
        "bo"
      ],
      [
        "ell",
        "o"
      ],
      [
        "Ġsy",
        "mbo"
      ],
      [
        "Ġsymbo",
        "l"
      ],
      [
        "Ġm",
        "od"
      ],
      [
        "om",
        "e"
      ],
      [
        "Ġl",
        "on"
      ],
      [
        "Ġp",
        "ro"
      ],
      [
        "Ġw",
        "ater"
      ],
      [
        "m",
        "ari"
      ],
      [
        "Ġ2",
        "0"
      ],
      [
        "Ġ3",
        "4"
      ],
      [
        "Ġs",
        "entence"
      ],
      [
        "Ġ3",
        "2"
      ],
      [
        "a",
        "b"
      ],
      [
        "n",
        "g"
      ],
      [
        "ĠWh",
        "ich"
      ],
      [
        "a",
        "re"
      ],
      [
        "Ġp",
        "ain"
      ],
      [
        "Ġ1",
        "7"
      ],
      [
        "ĠĠ",
        "ĠĠ"
      ],
      [
        "Ġpain",
        "ted"
      ],
      [
        "Ġc",
        "omp"
      ],
      [
        "Ġst",
        "and"
      ],
      [
        "b",
        "uild"
      ],
      [
        "Ġs",
        "e"
      ],
      [
        "Ġs",
        "ol"
      ],
      [
        "ar",
        "t"
      ],
      [
        "Ġc",
        "h"
      ],
      [
        "ĠC",
        "ount"
      ],
      [
        "Ġb",
        "e"
      ],
      [
        "Ġn",
        "am"
      ],
      [
        "Ġ",
        "j"
      ],
      [
        "ĠC",
        "lassify"
      ],
      [
        "n",
        "ing"
      ],
      [
        "Ġh",
        "ow"
      ],
      [
        "Ġmo",
        "st"
      ],
      [
        "Ġcount",
        "ry"
      ],
      [
        "Ġ",
        "Su"
      ],
      [
        "ite",
        "ly"
      ],
      [
        "Ġpol",
        "itely"
      ],
      [
        "v",
        "ity"
      ],
      [
        "a",
        "ke"
      ],
      [
        "ĠFlat",
        "build"
      ],
      [
        "Ġs",
        "p"
      ],
      [
        "u",
        "e"
      ],
      [
        "Ġ2",
        "8"
      ],
      [
        "c",
        "o"
      ],
      [
        "'",
        ","
      ],
      [
        "Ġ1",
        "4"
      ],
      [
        "om",
        "m"
      ],
      [
        "in",
        "ent"
      ],
      [
        "Ġcont",
        "inent"
      ],
      [
        "Ġsol",
        "ar"
      ],
      [
        "Ġ3",
        "7"
      ],
      [
        "x",
        "y"
      ],
      [
        "Ġd",
        "id"
      ],
      [
        "Ġ3",
        "6"
      ],
      [
        "Ġ2",
        "5"
      ],
      [
        "c",
        "i"
      ],
      [
        "Ġ4",
        "0"
      ],
      [
        "ew",
        "rite"
      ],
      [
        "mari",
        "ze"
      ],
      [
        "Ġ2",
        "4"
      ],
      [
        "Ġo",
        "cean"
      ],
      [
        "ap",
        "an"
      ],
      [
        "Ġ3",
        "3"
      ],
      [
        "Ġ3",
        "5"
      ],
      [
        "ri",
        "c"
      ],
      [
        "Ġ2",
        "7"
      ],
      [
        "at",
        "ur"
      ],
      [
        "Ġ2",
        "3"
      ],
      [
        "r",
        "ou"
      ],
      [
        "ĠJ",
        "apan"
      ],
      [
        "Ġ1",
        "8"
      ],
      [
        "i",
        "de"
      ],
      [
        "ĠT",
        "h"
      ],
      [
        "Ġn",
        "um"
      ],
      [
        "Ġ1",
        "6"
      ],
      [
        "ĠJapan",
        "ese"
      ],
      [
        "i",
        "us"
      ],
      [
        "Ġ2",
        "6"
      ],
      [
        "Ġnam",
        "e"
      ],
      [
        "Ġsy",
        "stem"
      ],
      [
        "ĠH",
        "ello"
      ],
      [
        "Ġ3",
        "8"
      ],
      [
        "o",
        "g"
      ],
      [
        "Ġfor",
        "m"
      ],
      [
        "r",
        "od"
      ],
      [
        "ul",
        "t"
      ],
      [
        "Ġ1",
        "5"
      ],
      [
        "rod",
        "u"
      ],
      [
        "d",
        "y"
      ],
      [
        "Ġ",
        "he"
      ],
      [
        "re",
        "at"
      ],
      [
        "al",
        "k"
      ],
      [
        "ĠA",
        "I"
      ],
      [
        "Ġ3",
        "9"
      ],
      [
        "W",
        "h"
      ],
      [
        "g",
        "ood"
      ],
      [
        "or",
        "k"
      ],
      [
        "Ġ1",
        "2"
      ],
      [
        "Ġtra",
        "in"
      ],
      [
        "m",
        "marize"
      ],
      [
        "u",
        "ss"
      ],
      [
        "Ġ2",
        "2"
      ],
      [
        "t",
        "o"
      ],
      [
        "b",
        "y"
      ],
      [
        "Ġ4",
        "2"
      ],
      [
        "u",
        "gu"
      ],
      [
        "Ġ",
        "en"
      ],
      [
        "Ġs",
        "un"
      ],
      [
        "Ġmod",
        "el"
      ],
      [
        "o",
        "in"
      ],
      [
        "els",
        "ius"
      ],
      [
        "Ġ4",
        "3"
      ],
      [
        "xy",
        "gen"
      ],
      [
        "on",
        "e"
      ],
      [
        "Ġa",
        "l"
      ],
      [
        "o",
        "re"
      ],
      [
        "Ġ4",
        "1"
      ],
      [
        "Ġ4",
        "4"
      ],
      [
        "ĠP",
        "ort"
      ],
      [
        "Ġw",
        "e"
      ],
      [
        "b",
        "on"
      ],
      [
        "Ġ2",
        "1"
      ],
      [
        "le",
        "ase"
      ],
      [
        "Ġ4",
        "7"
      ],
      [
        "a",
        "ch"
      ],
      [
        "m",
        "os"
      ],
      [
        "Ġ5",
        "0"
      ],
      [
        "ugu",
        "ese"
      ],
      [
        "Ġ1",
        "3"
      ],
      [
        "Ġ4",
        "5"
      ],
      [
        "ĠR",
        "ewrite"
      ],
      [
        "i",
        "k"
      ],
      [
        "bo",
        "ok"
      ],
      [
        "u",
        "nd"
      ],
      [
        "Ġbo",
        "ok"
      ],
      [
        "Ġl",
        "ist"
      ],
      [
        "Ġ4",
        "6"
      ],
      [
        "Ġat",
        "mos"
      ],
      [
        "Ġatmos",
        "ph"
      ],
      [
        "ĠH",
        "ey"
      ],
      [
        "ri",
        "ng"
      ],
      [
        "ĠPort",
        "uguese"
      ],
      [
        "Ġb",
        "u"
      ],
      [
        "Ġit",
        "s"
      ],
      [
        "a",
        "g"
      ],
      [
        "Ġ",
        "our"
      ],
      [
        "ĊĠĠ",
        "ĠĠĠĠ"
      ],
      [
        "Ġth",
        "an"
      ],
      [
        "Ġ4",
        "8"
      ],
      [
        "er",
        "ic"
      ],
      [
        "al",
        "ly"
      ],
      [
        "Ġl",
        "e"
      ],
      [
        "w",
        "ater"
      ],
      [
        "ĠSu",
        "mmarize"
      ],
      [
        "i",
        "z"
      ],
      [
        "ĠC",
        "elsius"
      ],
      [
        "i",
        "x"
      ],
      [
        "Ġ4",
        "9"
      ],
      [
        "Ġ",
        "0"
      ],
      [
        "an",
        "ce"
      ],
      [
        "he",
        "s"
      ],
      [
        "Ġ5",
        "2"
      ],
      [
        "il",
        "ing"
      ],
      [
        "Ġa",
        "r"
      ],
      [
        "Ġg",
        "as"
      ],
      [
        "ĠR",
        "uss"
      ],
      [
        "p",
        "l"
      ],
      [
        "c",
        "at"
      ],
      [
        "ra",
        "m"
      ],
      [
        "Ġs",
        "ub"
      ],
      [
        "Ġ5",
        "1"
      ],
      [
        "er",
        "t"
      ],
      [
        "ri",
        "al"
      ],
      [
        "```",
        "<|"
      ],
      [
        "i",
        "o"
      ],
      [
        "ant",
        "s"
      ],
      [
        "hel",
        "lo"
      ],
      [
        "th",
        "ank"
      ],
      [
        "Ġha",
        "ik"
      ],
      [
        "Ġhaik",
        "u"
      ],
      [
        "f",
        "er"
      ],
      [
        "Ġ5",
        "6"
      ],
      [
        "Ġ6",
        "0"
      ],
      [
        "g",
        "ain"
      ],
      [
        "l",
        "and"
      ],
      [
        "Ġa",
        "gain"
      ],
      [
        "Ġc",
        "hat"
      ],
      [
        "Ġy",
        "ear"
      ],
      [
        "en",
        "ce"
      ],
      [
        "Ġ5",
        "9"
      ],
      [
        "good",
        "by"
      ],
      [
        "goodby",
        "e"
      ],
      [
        "Ġ",
        "U"
      ],
      [
        "Ġ5",
        "3"
      ],
      [
        "Ġ6",
        "3"
      ],
      [
        "or",
        "ning"
      ],
      [
        "Ġ5",
        "4"
      ],
      [
        "Ġ6",
        "1"
      ],
      [
        "he",
        "n"
      ],
      [
        "Ġto",
        "day"
      ],
      [
        "omm",
        "end"
      ],
      [
        "Ġc",
        "al"
      ],
      [
        "ver",
        "y"
      ],
      [
        "Ġm",
        "ount"
      ],
      [
        "Ġmount",
        "ain"
      ],
      [
        "Ġd",
        "is"
      ],
      [
        "ol",
        "d"
      ],
      [
        "Ġ5",
        "5"
      ],
      [
        "Ġo",
        "xygen"
      ],
      [
        "Ġwh",
        "ich"
      ],
      [
        "Ġlon",
        "gest"
      ],
      [
        "a",
        "us"
      ],
      [
        "im",
        "p"
      ],
      [
        "an",
        "g"
      ],
      [
        "in",
        "a"
      ],
      [
        "Ġ5",
        "7"
      ],
      [
        "Ġn",
        "ot"
      ],
      [
        "Ġmo",
        "on"
      ],
      [
        "Ġcom",
        "m"
      ],
      [
        "oin",
        "t"
      ],
      [
        "le",
        "d"
      ],
      [
        "b",
        "ers"
      ],
      [
        "e",
        "ct"
      ],
      [
        "Ġa",
        "ir"
      ],
      [
        "Ġs",
        "ome"
      ],
      [
        "Ġ7",
        "8"
      ],
      [
        "Ġ6",
        "2"
      ],
      [
        "Ġc",
        "ar"
      ],
      [
        "el",
        "f"
      ],
      [
        "et",
        "w"
      ],
      [
        "a",
        "ge"
      ],
      [
        "Ġ5",
        "8"
      ],
      [
        "Ġreturn",
        "s"
      ],
      [
        "ĠS",
        "t"
      ],
      [
        "Ġche",
        "ck"
      ],
      [
        "re",
        "d"
      ],
      [
        "Ġn",
        "o"
      ],
      [
        "Ġf",
        "our"
      ],
      [
        "ri",
        "t"
      ],
      [
        "il",
        "t"
      ],
      [
        "ec",
        "ommend"
      ],
      [
        "Ġbu",
        "ilt"
      ],
      [
        "r",
        "on"
      ],
      [
        "s",
        "or"
      ],
      [
        "ã",
        "ģ"
      ],
      [
        "th",
        "er"
      ],
      [
        "ĠC",
        "ould"
      ],
      [
        "Ġ10",
        "0"
      ],
      [
        "Ġcal",
        "led"
      ],
      [
        "Ġ6",
        "4"
      ],
      [
        "Ġ6",
        "5"
      ],
      [
        "ic",
        "e"
      ],
      [
        "ĠA",
        "s"
      ],
      [
        "rodu",
        "ce"
      ],
      [
        "y",
        "es"
      ],
      [
        "ĠWh",
        "y"
      ],
      [
        "Ġn",
        "atur"
      ],
      [
        "n",
        "o"
      ],
      [
        "ĠRuss",
        "ian"
      ],
      [
        "'",
        "re"
      ],
      [
        "re",
        "ad"
      ],
      [
        "Ġp",
        "op"
      ],
      [
        "Ġ",
        "op"
      ],
      [
        "Ġyour",
        "s"
      ],
      [
        "r",
        "op"
      ],
      [
        "l",
        "ue"
      ],
      [
        "os",
        "y"
      ],
      [
        "Ġdes",
        "ert"
      ],
      [
        "c",
        "ent"
      ],
      [
        "h",
        "ou"
      ],
      [
        "Ġ7",
        "0"
      ],
      [
        "hou",
        "se"
      ],
      [
        "Ġp",
        "re"
      ],
      [
        "Ġ6",
        "6"
      ],
      [
        "Ġ6",
        "9"
      ],
      [
        "Ġstand",
        "s"
      ],
      [
        "ĠA",
        "f"
      ],
      [
        "Ġ6",
        "7"
      ]
    ]
  }
}